0.84354872, -1.31556427, 0.03457871, 0.49555665, 0.71418512, 1.54113054, 0.78248566, -0.86090195, 1.34451747, -1.15426242, -1.52211249, 0.95772409, -2.40755510, -0.03295772, -0.38370833, 2.12792301
1.43660522, -0.00152227, 0.92057288, 0.07756915, 0.98649859, 0.41973028, -0.92610639, 1.39380789, -2.67030239, 0.89811420, -0.45092687, -1.44665456, -2.31315255, 1.81835926, 1.46645665, 0.33041441
-0.34600553, -0.66869110, -0.46731076, 1.03006113, 0.41693285, 0.01415720, -0.24209213, 0.22169183, 0.22917181, 0.60059100, 1.21836364, -0.21807016, 0.78176868, -0.55542088, 2.04874516, 1.37259996
-0.08890059, -0.42683190, 0.83267146, -0.76014048, -0.24974318, -0.07216658, 1.09535372, 0.53598118, 0.19196834, -2.01985931, 0.64209431, -0.18490563, -1.21579337, -0.14673883, -2.45296407, 1.53090274
0.05277290, 1.21217680, 0.71304262, -0.11868607, -0.51700842, 0.30287564, 1.34069061, 0.02178557, 0.17542504, -1.36363125, -0.04111117, -0.29416153, -0.28432995, 0.17085263, 1.35382640, -1.94423723
-0.23850209, 0.45452252, 0.19286430, -0.58587182, -1.00686908, 0.57967830, -0.63291448, 0.35416293, -1.00196743, -0.19356032, -0.51482260, -0.09646067, 0.26382563, 0.43398860, 1.82836282, -0.19225907
0.54291588, -0.69408637, -0.63315582, -1.49335206, 0.68324870, -0.55485141, 0.24087566, -0.31197250, -1.18158209, -0.84833527, -0.32763994, 0.00896371, -0.68150812, 0.15096310, 0.20791093, 1.84869945
-0.50304061, 0.44955465, -2.23575473, -0.26966202, -1.12840307, 0.88260597, 0.53472197, 1.75319314, 1.69448137, -2.16693950, 0.90533835, 1.23739767, 0.13351734, 0.53737533, -0.17983505, -0.07389791